3DE
3AC
362
001
3D0
00B
3C1
012
3F1
00D
002
3C2
394
021
3F9
3E3
3D0
3EB
02E
341
3A0
008
3F7
3C7
3BA
008
000
010
353
3EB
3C2
01B
3E3
3FE
3F0
3C4
04D
31D
013
023
3E1
3E5
3CE
038
00E
043
3F9
3E8
008
00F
3CD
3CC
3E0
3EA
07F
320
3E4
028
01C
3B5
3D1
01C
014
012
003
0B4
112
016
3CA
001
058
038
080
372
018
3F6
3D3
3BB
3B8
00C
000
00B
364
3D2
06F
021
028
066
0A4
041
066
340
3C6
012
3EB
39C
3CD
025
3F7
00B
35B
3D3
393
3FD
00F
3F6
015
3E8
02C
390
39C
013
009
3E9
3C2
011
003
033
3A3
3D3
3BD
031
000
3F7
3F7
3FE
010
393
393
007
021
3F6
3C3
014
018
02D
3D7
3D1
3CA
041
3FA
3D8
3FD
3F7
3EF
014
3B9
3CD
032
3F7
3E0
01E
3ED
3BD
01F
3B8
3CF
055
3D5
3E2
01D
3EB
060
3A6
3CF
3E1
023
00A
3E5
02B
015
007
374
3B3
3EA
010
3E6
3EC
030
3F1
011
000
39C
3B6
013
3F8
3C8
3CA
3ED
3E4
057
060
023
3DD
3CE
3BF
3DE
000
026
113
06E
067
02C
047
015
027
009
3A6
0EB
0ED
066
3EA
02E
03D
048
012
3EA
03E
3D9
011
00F
04B
02C
02D
3E4
381
078
083
018
3C2
029
064
04E
012
003
3C2
368
39C
3E1
3F8
3D4
3B1
3C6
3AE
371
3BD
39F
3D0
03A
042
002
3C0
025
3EB
04F
3C9
01D
3E7
3E5
3F3
3F3
014
3E7
3E1
3F2
02A
3F7
3E2
3F7
3F2
01B
3D8
033
02D
003
3F7
3CE
3FA
000
040
3F7
03B
016
3EC
3F9
3DD
3F3
3F6
3F9
01A
378
3E3
052
3DD
3D1
053
021
00C
03F
369
3F6
073
00B
3DF
02C
017
049
0C1
36C
000
005
3D5
3CE
02B
03E
0B6
3F5
392
003
025
3CC
3E5
047
035
070
1BF
02C
01A
3E4
3BE
3C0
3FC
02D
048
0F2
3B1
3E5
008
3F8
3DB
3D4
019
3BC
180
052
3D3
3A8
011
009
01A
3C7
014
013
020
3E6
3E3
016
3F7
3C7
3BF
389
051
056
3E1
3D0
05D
01C
3F0
3A4
3CE
3EF
3ED
398
3E7
01B
3D6
3DD
3BE
3C1
3A0
012
3C1
05A
0CA
02F
3E9
3E4
3C8
011
3CF
3B2
05C
05C
001
3DD
3C4
3F7
38E
03B
3E0
04B
021
3D4
3DE
00E
017
3AD
3D8
3E2
064
034
3F6
3FF
00F
00A
3F1
03B
3E3
3F2
3D4
3B5
3D5
006
013
3DF
01F
3E9
00A
3EB
3BE
3ED
3FF
3D6
032
3B1
3E2
05A
001
3AE
02F
3FB
003
020
01C
3E2
024
3D6
3EF
3FE
018
041
3BD
38F
017
03E
3F6
3FC
027
022
04C
3E8
00F
3FB
03A
026
3E2
05E
029
01A
088
3EB
3F9
3EC
025
3D9
3F8
3F3
057
092
3D7
3CF
3E4
02B
009
013
3EC
3D0
035
04B
3C2
3DE
3F7
3EC
3E7
3B9
3DF
032
047
3EF
3C9
01F
00D
001
3C8
3D8
006
008
3D8
3DA
018
3EE
3FB
3B0
3B5
3D2
3F0
02A
3B5
3F7
3E1
3DB
3B8
011
028
3B3
3B4
01D
048
3FE
3D9
3CC
002
039
3E9
3F5
045
06A
005
006
3C8
00E
3D9
027
005
03E
00C
3BD
013
012
009
3FE
3D1
3F1
025
3FC
3EE
007
009
003
3EC
00C
3F7
017
3C3
3C0
012
01B
010
3FD
019
3DE
010
3D1
3D6
007
023
3E6
003
3CA
003
3F7
3D2
3B4
01B
3E7
3F1
05F
3B0
3DE
008
011
3C9
01F
00B
3D2
3A7
3CD
034
04E
011
3DF
046
00D
010
078
05D
3BB
02B
3CC
3DA
03B
01F
01D
02C
39D
3CB
00D
026
004
02F
008
04F
083
3B3
3D6
020
019
3D8
014
3F9
392
3B5
3FF
3AC
38D
00D
3F0
3E2
39B
011
010
3BD
3B9
3D1
00A
3C7
3D2
3A6
3BD
054
3D6
3E0
384
3E0
3CF
3DD
3B5
01D
057
379
3DA
3F3
019
3CC
3CD
38D
039
0B2
036
031
03F
037
3F7
3FE
3EA
046
07E
3D5
3FD
04B
043
3D9
004
010
015
3FB
01F
022
042
3EC
3E0
00E
004
3C4
3BE
015
3F7
038
000
3C5
3F3
008
3FA
3A5
3FF
3E3
3FA
3B8
3D7
3FF
00B
3D1
3CB
028
019
00E
3BE
3C7
3F9
00A
3D2
05E
3F0
3EC
3F1
005
3BE
013
00E
034
04C
3DB
3E0
3D4
3DD
3CA
01D
019
03C
0BD
3FA
3D1
05F
3EB
3C0
05A
3E4
3AF
08D
3F8
043
012
3C8
3EF
07F
013
3F8
0AC
3CC
39C
001
3E4
392
3C8
3CC
3F0
108
079
3CE
3CA
3E0
3B5
3D2
3DC
018
0BF
024
3A7
3D8
037
3C6
3AA
388
000
0C1
05C
3A3
3B6
020
3B5
3A2
3A2
3FC
042
377
362
3B6
04C
3AA
3AA
34F
014
0D2
3E7
365
3E1
02E
3CB
3A3
376
3CF
016
395
380
007
045
3DE
3C2
3C5
3DF
02E
3AC
388
00B
055
3DB
3CC
3A4
3CE
3F4
057
3F0
025
003
3CC
003
008
3B7
004
025
03F
014
3F3
3EA
005
016
3D3
00B
3EE
3E9
3D7
3C2
3BD
3DA
3F3
3B8
019
3E6
021
3E0
3B4
3A6
003
3E8
019
3F5
39C
004
3CD
3C1
3A2
029
007
043
052
385
3C1
012
3B1
3FC
3F8
3AE
3BA
0DE
361
022
025
018
014
05C
032
02A
08A
3DA
068
073
0D3
079
05D
3ED
3C8
071
3E9
3C8
3B4
3E2
39B
3B7
3DA
3D9
0A1
3E6
3DC
3BA
00E
3C9
3C5
3AE
01B
021
069
370
3E5
01E
39B
39E
398
058
0BD
034
3EC
01E
042
3D1
3BC
388
023
02D
36C
376
00A
012
3CE
3B4
38A
03D
0C9
3DD
391
010
05F
3F1
3E0
3C3
3E1
3F2
3F8
3AD
3EC
03A
3E1
3F5
3EF
3EF
0AE
3AA
3B2
3F5
040
3DC
3CF
3BE
3B5
036
05E
037
03C
018
000
023
027
3D1
0A9
070
02D
01D
009
013
034
027
3B1
012
3B6
010
3D4
3E3
3B9
003
00C
396
002
3E6
3DC
3DB
3D7
3B8
010
020
073
35B
3C8
37A
344
382
3EF
3A3
323
064
34C
37F
3B8
314
3C6
107
00C
027
322
35D
36E
3A8
3CA
3C8
3E1
013
3DF
389
00F
3B0
399
3EC
3D8
3C4
004
3F5
39D
010
015
058
04C
029
05E
06D
07A
36A
3EC
003
3B5
3FB
3B5
3DF
00F
018
397
044
016
049
068
018
020
0AC
0C2
348
3D9
34B
3A9
3EE
3BE
3C2
3DD
010
398
02D
359
116
0B1
3F9
015
06D
082
353
394
379
3DF
020
388
3CC
3FB
06B
392
089
021
103
042
02D
019
03D
3F1
372
3F5
018
00E
00B
3D7
3DC
3BD
039
376
01C
002
085
00D
3D9
3C1
00E
3A1
38B
010
043
3E3
3ED
3A2
3C7
3CF
010
3A8
066
3FA
3C7
3CF
3D4
3BB
00D
363
3B8
3DD
3B9
3FD
02F
3D2
3C9
3EC
000

